memory_initialization_radix=16;
memory_initialization_vector=
0c97ccadd1d02b4400000efe0fdeaf4212d3000016b11f578f0bd4aa0000184464491d361fde00001a2c74491d161dde00001c93f84c263b07e2000000000000,
6f8ed3b847e4c821000073580fdeaf4212930000768a08a7b0d0a30500007b97c7d8d8706c1000007bc10fdeaf4212d300007cca74491d261dde000000000000;