memory_initialization_radix=16;
memory_initialization_vector=
0000887574099d0619de00008a550fdeaf4216d300008ae8784c261b07e200008e28d3b851e4c84100008fcf64499d361dde00009810e7d8d8306c1100009ab5,
00001db9784c263b07ea00001e96784c263b07e200001f1889a3b2a4a10f00001fd1cc6dd1f02b44000021eff84c263b07e2000024aa29a3b2a4a10f00002e12;