00000000000000001000100001110101011101000000100110011101000001100001100111011110000000000000000010001010010101010000111111011110101011110100001000010110110100110000000000000000100010101110100001111000010011000010011000011011000001111110001000000000000000001000111000101000110100111011100001010001111001001100100001000001000000000000000010001111110011110110010001001001100111010011011000011101110111100000000000000000100110000001000011100111110110001101100000110000011011000001000100000000000000001001101010110101
00000000000000000001110110111001011110000100110000100110001110110000011111101010000000000000000000011110100101100111100001001100001001100011101100000111111000100000000000000000000111110001100010001001101000111011001010100100101000010000111100000000000000000001111111010001110011000110110111010001111100000010101101000100000000000000000000100001111011111111100001001100001001100011101100000111111000100000000000000000001001001010101000101001101000111011001010100100101000010000111100000000000000000010111000010010
