00001100100101111100110010101101110100011101000000101011010001000000000000000000000011101111111000001111110111101010111101000010000100101101001100000000000000000001011010110001000111110101011110001111000010111101010010101010000000000000000000011000010001000110010001001001000111010011011000011111110111100000000000000000000110100010110001110100010010010001110100010110000111011101111000000000000000000001110010010011111110000100110000100110001110110000011111100010000000000000000000000000000000000000000000000000
01101111100011101101001110111000010001111110010011001000001000010000000000000000011100110101100000001111110111101010111101000010000100101001001100000000000000000111011010001010000010001010011110110000110100001010001100000101000000000000000001111011100101111100011111011000110110000111000001101100000100000000000000000000011110111100000100001111110111101010111101000010000100101101001100000000000000000111110011001010011101000100100100011101001001100001110111011110000000000000000000000000000000000000000000000000
00011001110010001100011111011000110110000011000001101100000100010000000000000000010101010010010011100111110110001101100001110000011011000001000100000000000000001010100001111001110001111101100011011000011100000110110000010001000000000000000001000010110101111100011111011000110110000111000001101100000100010000000000000000010011100110010011000111110110001101100000110000011011000001000100000000000000000011111100101010111001111101100011011000011100000110110000010001000000000000000000000000000000000000000000000000
00111011110010111100011111011000110110000011000001101100000100010000000000000000011000110111001011000111110110001101100000110000011011000001000100000000000000001000100101010010110001111101100011011000001100000110110000010001000000000000000010000011111001101100011111011000110110000111000001101100000100010000000000000000001010100110010011000111110110001101100001110000011011000001000100000000000000000110100000111011111001111101100011011000001100000110110000010001000000000000000000000000000000000000000000000000
10111000001010111110011111011000110110000111000001101100000100010000000000000000100110000111111111000111110110001101100001110000011011000001000100000000000000001011000000111000110001111101100011011000011100000110110000010001000000000000000010001101010001101110011111011000110110000111000001101100000100010000000000000000011101101110100111000111110110001101100000110000011011000001000100000000000000000000000111000010110001111101100011011000001100000110110000010001000000000000000000000000000000000000000000000000
10001101010001101110011111011000110110000111000001101100000100010000000000000000000001001100001011000111110110001101100000110000011011000001000100000000000000001010000011111000111001111101100011011000001100000110110000010001000000000000000000110011111011111100011111011000110110000111000001101100000100010000000000000000101000111000000011000111110110001101100000110000011011000001000100000000000000001010010011011001110001111101100011011000011100000110110000010001000000000000000000000000000000000000000000000000
00001110100000011100011111011000110110000011000001101100000100010000000000000000101100101011011111000111110110001101100000110000011011000001000100000000000000000000100101010101110001111101100011011000011100000110110000010001000000000000000010001101111111101100011111011000110110000011000001101100000100010000000000000000100101010000011011000111110110001101100000110000011011000001000100000000000000001001100010101001110001111101100011011000001100000110110000010001000000000000000000000000000000000000000000000000
