memory_initialization_radix=16;
memory_initialization_vector=
0000887574099d0619de00008a550fdeaf4216d300008ae8784c261b07e200008e28d3b851e4c84100008fcf64499d361dde00009810e7d8d8306c1100009ab5,
00001db9784c263b07ea00001e96784c263b07e200001f1889a3b2a4a10f00001fd1cc6dd1f02b44000021eff84c263b07e2000024aa29a3b2a4a10f00002e12,
0000b82be7d8d8706c1100004227c7d8d8306c110000987fc7d8d8706c1100002d3fe7d8d8306c11000075dcc7d8d8306c110000b038c7d8d8706c11000001c2,
000006e1e7d8d8706c11000004c2c7d8d8306c1100000e1bc7d8d8706c110000a137c7d8d8306c110000718dc7d8d8706c1100000892c7d8d8706c1100001923,
00000182e7d8d8306c1100007037c7d8d8306c1100007f6dc7d8d8306c11000012f2c7d8d8306c110000c1dec7d8d8306c11000004c2c7d8d8306c1100002d3f,
00005a28c7d8d8706c1100005149c7d8d8306c1100002f04c7d8d8306c1100003c9de7d8d8306c1100002241e7d8d8706c11000018d9c7d8d8706c1100002497,
0000b3bdc7d8d8706c11000006e0c7d8d8306c11000004bac7d8d8706c1100002469c7d8d8306c110000b4aac7d8d8706c110000bab3c7d8d8306c1100002071;