memory_initialization_radix=16;
memory_initialization_vector=
0c97ccadd1d02b4400000efe0fdeaf4212d3000016b11f578f0bd4aa0000184464491d361fde00001a2c74491d161dde00001c93f84c263b07e2000000000000,
6f8ed3b847e4c821000073580fdeaf4212930000768a08a7b0d0a30500007b97c7d8d8706c1000007bc10fdeaf4212d300007cca74491d261dde000000000000,
19c8c7d8d8306c1100005524e7d8d8706c110000a879c7d8d8706c11000042d7c7d8d8706c1100004e64c7d8d8306c1100003f2ae7d8d8706c11000000000000,
3bcbc7d8d8306c1100006372c7d8d8306c1100008952c7d8d8306c11000083e6c7d8d8706c1100002a64c7d8d8706c110000683be7d8d8306c11000000000000,
b82be7d8d8706c110000987fc7d8d8706c110000b038c7d8d8706c1100008d46e7d8d8706c11000076e9c7d8d8306c11000001c2c7d8d8306c11000000000000,
8d46e7d8d8706c11000004c2c7d8d8306c110000a0f8e7d8d8306c11000033efc7d8d8706c110000a380c7d8d8306c110000a4d9c7d8d8706c11000000000000,
0e81c7d8d8306c110000b2b7c7d8d8306c1100000955c7d8d8706c1100008dfec7d8d8306c1100009506c7d8d8306c11000098a9c7d8d8306c11000000000000;