00001100100101111100110010101101110100011101000000101011010001000000000000000000000011101111111000001111110111101010111101000010000100101101001100000000000000000001011010110001000111110101011110001111000010111101010010101010000000000000000000011000010001000110010001001001000111010011011000011111110111100000000000000000000110100010110001110100010010010001110100010110000111011101111000000000000000000001110010010011111110000100110000100110001110110000011111100010000000000000000000000000000000000000000000000000
01101111100011101101001110111000010001111110010011001000001000010000000000000000011100110101100000001111110111101010111101000010000100101001001100000000000000000111011010001010000010001010011110110000110100001010001100000101000000000000000001111011100101111100011111011000110110000111000001101100000100000000000000000000011110111100000100001111110111101010111101000010000100101101001100000000000000000111110011001010011101000100100100011101001001100001110111011110000000000000000000000000000000000000000000000000
