memory_initialization_radix=16;
memory_initialization_vector=
07e20000ba7369ba7170e5610000bab271ba71e0d5690000bed2ccadd1d02b440000bf720fdeaf4212d30000c206e7d8d8306c11000004c2c7d8d8306c110000,
07e2000042bd6758d8704c5000004563c6d8d9f02a1400004802784c263b07f200004d4f0fdeaf4216d200005aaf74499d061dde00005bfcd3b847a4c8210000,
6c1100009d99a7daf8706c11000004c8c7d8d8706c11000041f4c7d8d8706c1100005862c7d8d8306c110000a8d5e7d8d8306c110000b7fec7d8d8306c110000,
6c1100008f88c7d8d8706c110000b6c7e7d8d8306c110000309cc7d8d8306c110000a10ec7d8d8306c110000a6dfe7d8d8306c110000ba76c7d8d8706c110000,
6c1100007a25c7d8c8706c1100007b6fc7d8d8706c1100004975c7d8d8706c11000051eac7d8d8306c1100001ff9c7d8d8306c1100004227c7d8d8306c110000,
6c11000028cac7d8d8706c110000309cc7d8d8306c11000004ebc7d8d8306c1100002fcae7d8d8306c11000048dbc7d8d8306c110000540cc7d8d8306c110000,
6c1100005227c7d8d8706c110000b2f0c7d8d8306c11000030b2c7d8d8306c110000552167d8d8306c11000004c2c7d8d8306c1100002836c7d8d8706c110000;