00000111111000100000000000000000101110100111001101101001101110100111000101110000111001010110000100000000000000001011101010110010011100011011101001110001111000001101010101101001000000000000000010111110110100101100110010101101110100011101000000101011010001000000000000000000101111110111001000001111110111101010111101000010000100101101001100000000000000001100001000000110111001111101100011011000001100000110110000010001000000000000000000000100110000101100011111011000110110000011000001101100000100010000000000000000
00000111111000100000000000000000010000101011110101100111010110001101100001110000010011000101000000000000000000000100010101100011110001101101100011011001111100000010101000010100000000000000000001001000000000100111100001001100001001100011101100000111111100100000000000000000010011010100111100001111110111101010111101000010000101101101001000000000000000000101101010101111011101000100100110011101000001100001110111011110000000000000000001011011111111001101001110111000010001111010010011001000001000010000000000000000
01101100000100010000000000000000100111011001100110100111110110101111100001110000011011000001000100000000000000000000010011001000110001111101100011011000011100000110110000010001000000000000000001000001111101001100011111011000110110000111000001101100000100010000000000000000010110000110001011000111110110001101100000110000011011000001000100000000000000001010100011010101111001111101100011011000001100000110110000010001000000000000000010110111111111101100011111011000110110000011000001101100000100010000000000000000
01101100000100010000000000000000100011111000100011000111110110001101100001110000011011000001000100000000000000001011011011000111111001111101100011011000001100000110110000010001000000000000000000110000100111001100011111011000110110000011000001101100000100010000000000000000101000010000111011000111110110001101100000110000011011000001000100000000000000001010011011011111111001111101100011011000001100000110110000010001000000000000000010111010011101101100011111011000110110000111000001101100000100010000000000000000
01101100000100010000000000000000011110100010010111000111110110001100100001110000011011000001000100000000000000000111101101101111110001111101100011011000011100000110110000010001000000000000000001001001011101011100011111011000110110000111000001101100000100010000000000000000010100011110101011000111110110001101100000110000011011000001000100000000000000000001111111111001110001111101100011011000001100000110110000010001000000000000000001000010001001111100011111011000110110000011000001101100000100010000000000000000
01101100000100010000000000000000001010001100101011000111110110001101100001110000011011000001000100000000000000000011000010011100110001111101100011011000001100000110110000010001000000000000000000000100111010111100011111011000110110000011000001101100000100010000000000000000001011111100101011100111110110001101100000110000011011000001000100000000000000000100100011011011110001111101100011011000001100000110110000010001000000000000000001010100000011001100011111011000110110000011000001101100000100010000000000000000
01101100000100010000000000000000010100100010011111000111110110001101100001110000011011000001000100000000000000001011001011110000110001111101100011011000001100000110110000010001000000000000000000110000101100101100011111011000110110000011000001101100000100010000000000000000010101010010000101100111110110001101100000110000011011000001000100000000000000000000010011000010110001111101100011011000001100000110110000010001000000000000000000101000001101101100011111011000110110000111000001101100000100010000000000000000
