memory_initialization_radix=16;
memory_initialization_vector=
0f578f0bd4aa00009d6372a9531528b900009dd31f578f0bd42a00009f9f70a9511528bd0000a0530fdeaf4212d30000a38d0fdeaf4212d30000b218784c263b,
29a3b2a4a10f00002f6370ae515128b10000331874499d261dde00003a7070a95915289d00003cd529be7140d56100003f6129ba71e0856100004099784c263b,
c7d8d8306c1100008d46e7d8d8706c11000076e9c7d8d8306c1100002836c7d8d8706c110000442fc7d8d8306c11000066d4c7d8d8306c110000781fc7d8d830,
c7d8d8706c1100003253c7d8d8706c110000397ec7d8d8306c11000014ebe7d8d8306c11000046fec7d8d8306c1100004f86c7d8d8706c1100008d36e7d8d870,
e7d8d8306c1100006d7ec7d8d8306c1100001aa8e7d8f8706c1100002ef6c7d8d8306c110000a0cfc7d8d8706c1100002315c7d8d8706c1100006d91c7d8d870,
c7d8d8306c110000a62687d8d8706c110000c2d5c7d8d8306c1100006030e7d8d8306c110000739287d8d8706c110000b86ec7d8d8706c1100000de1c7d8d830,
c7d8d8706c1100006ac5cfd8d8706c1100002bd6c7d8d8306c1100006e0ec7d8d8706c11000043d0c7d8d8706c1100002487c7d8d8706c110000556a67d8d870;