00001111010101111000111100001011110101001010101000000000000000001001110101100011011100101010100101010011000101010010100010111001000000000000000010011101110100110001111101010111100011110000101111010100001010100000000000000000100111111001111101110000101010010101000100010101001010001011110100000000000000001010000001010011000011111101111010101111010000100001001011010011000000000000000010100011100011010000111111011110101011110100001000010010110100110000000000000000101100100001100001111000010011000010011000111011
00101001101000111011001010100100101000010000111100000000000000000010111101100011011100001010111001010001010100010010100010110001000000000000000000110011000110000111010001001001100111010010011000011101110111100000000000000000001110100111000001110000101010010101100100010101001010001001110100000000000000000011110011010101001010011011111001110001010000001101010101100001000000000000000000111111011000010010100110111010011100011110000010000101011000010000000000000000010000001001100101111000010011000010011000111011
11000111110110001101100000110000011011000001000100000000000000001000110101000110111001111101100011011000011100000110110000010001000000000000000001110110111010011100011111011000110110000011000001101100000100010000000000000000001010000011011011000111110110001101100001110000011011000001000100000000000000000100010000101111110001111101100011011000001100000110110000010001000000000000000001100110110101001100011111011000110110000011000001101100000100010000000000000000011110000001111111000111110110001101100000110000
11000111110110001101100001110000011011000001000100000000000000000011001001010011110001111101100011011000011100000110110000010001000000000000000000111001011111101100011111011000110110000011000001101100000100010000000000000000000101001110101111100111110110001101100000110000011011000001000100000000000000000100011011111110110001111101100011011000001100000110110000010001000000000000000001001111100001101100011111011000110110000111000001101100000100010000000000000000100011010011011011100111110110001101100001110000
11100111110110001101100000110000011011000001000100000000000000000110110101111110110001111101100011011000001100000110110000010001000000000000000000011010101010001110011111011000111110000111000001101100000100010000000000000000001011101111011011000111110110001101100000110000011011000001000100000000000000001010000011001111110001111101100011011000011100000110110000010001000000000000000000100011000101011100011111011000110110000111000001101100000100010000000000000000011011011001000111000111110110001101100001110000
11000111110110001101100000110000011011000001000100000000000000001010011000100110100001111101100011011000011100000110110000010001000000000000000011000010110101011100011111011000110110000011000001101100000100010000000000000000011000000011000011100111110110001101100000110000011011000001000100000000000000000111001110010010100001111101100011011000011100000110110000010001000000000000000010111000011011101100011111011000110110000111000001101100000100010000000000000000000011011110000111000111110110001101100000110000
11000111110110001101100001110000011011000001000100000000000000000110101011000101110011111101100011011000011100000110110000010001000000000000000000101011110101101100011111011000110110000011000001101100000100010000000000000000011011100000111011000111110110001101100001110000011011000001000100000000000000000100001111010000110001111101100011011000011100000110110000010001000000000000000000100100100001111100011111011000110110000111000001101100000100010000000000000000010101010110101001100111110110001101100001110000
