00000000000000001000100001110101011101000000100110011101000001100001100111011110000000000000000010001010010101010000111111011110101011110100001000010110110100110000000000000000100010101110100001111000010011000010011000011011000001111110001000000000000000001000111000101000110100111011100001010001111001001100100001000001000000000000000010001111110011110110010001001001100111010011011000011101110111100000000000000000100110000001000011100111110110001101100000110000011011000001000100000000000000001001101010110101
00000000000000000001110110111001011110000100110000100110001110110000011111101010000000000000000000011110100101100111100001001100001001100011101100000111111000100000000000000000000111110001100010001001101000111011001010100100101000010000111100000000000000000001111111010001110011000110110111010001111100000010101101000100000000000000000000100001111011111111100001001100001001100011101100000111111000100000000000000000001001001010101000101001101000111011001010100100101000010000111100000000000000000010111000010010
00000000000000001011100000101011111001111101100011011000011100000110110000010001000000000000000001000010001001111100011111011000110110000011000001101100000100010000000000000000100110000111111111000111110110001101100001110000011011000001000100000000000000000010110100111111111001111101100011011000001100000110110000010001000000000000000001110101110111001100011111011000110110000011000001101100000100010000000000000000101100000011100011000111110110001101100001110000011011000001000100000000000000000000000111000010
00000000000000000000011011100001111001111101100011011000011100000110110000010001000000000000000000000100110000101100011111011000110110000011000001101100000100010000000000000000000011100001101111000111110110001101100001110000011011000001000100000000000000001010000100110111110001111101100011011000001100000110110000010001000000000000000001110001100011011100011111011000110110000111000001101100000100010000000000000000000010001001001011000111110110001101100001110000011011000001000100000000000000000001100100100011
00000000000000000000000110000010111001111101100011011000001100000110110000010001000000000000000001110000001101111100011111011000110110000011000001101100000100010000000000000000011111110110110111000111110110001101100000110000011011000001000100000000000000000001001011110010110001111101100011011000001100000110110000010001000000000000000011000001110111101100011111011000110110000011000001101100000100010000000000000000000001001100001011000111110110001101100000110000011011000001000100000000000000000010110100111111
00000000000000000101101000101000110001111101100011011000011100000110110000010001000000000000000001010001010010011100011111011000110110000011000001101100000100010000000000000000001011110000010011000111110110001101100000110000011011000001000100000000000000000011110010011101111001111101100011011000001100000110110000010001000000000000000000100010010000011110011111011000110110000111000001101100000100010000000000000000000110001101100111000111110110001101100001110000011011000001000100000000000000000010010010010111
00000000000000001011001110111101110001111101100011011000011100000110110000010001000000000000000000000110111000001100011111011000110110000011000001101100000100010000000000000000000001001011101011000111110110001101100001110000011011000001000100000000000000000010010001101001110001111101100011011000001100000110110000010001000000000000000010110100101010101100011111011000110110000111000001101100000100010000000000000000101110101011001111000111110110001101100000110000011011000001000100000000000000000010000001110001
